#version: 0.2
Ġ p
Ġ d
Ġ e
c o
Ġ a
Ġ co
d o
i n
e r
Ġ o
r a
t a
c a
Ġd e
e n
Ġ G
r o
d a
s t
Ġco m
o s
e s
£ o
Ã £o
Ġ s
o r
Ã ©
Ġ u
e c
Ã ¡
Ġco n
m a
ĠG P
I O
Ġ n
ĠGP IO
l a
t i
Ġd a
o n
t e
a s
Ġe st
t o
Ġp in
Ġcon ec
i ca
c i
i s
a l
Ġ m
Ġp ro
Ġd o
Ġest Ã¡
Ġpin o
Ġ B
Ġconec ta
i t
r i
s i
Ã §
q u
r e
t ro
Ġ 1
Ġ P
Ġ R
Ġ b
a do
i co
i da
m en
Ġp la
a b
b er
o g
Ġ O
Ġ f
Ġ in
Ġconecta do
r es
Ã Ń
Ġ (
Ġ A
Ġ I
Ġa o
Ġn o
Ġpla ca
N D
a n
a r
d e
g ra
i z
o t
Ġ Ã©
Ġ qu
er m
Ġo s
ĠG ND
Ã© m
Ġu m
Ġn a
Ã§ Ã£o
D og
L ab
e l
r y
Ġ E
Ġ U
Ġp a
Ġa p
Ġu ma
ti v
as p
ĠB it
ĠR asp
ber ry
ot Ã£o
Dog Lab
ĠBit DogLab
e to
i g
s o
u tro
Ġ S
Ġ t
Ġ v
Ġe s
Ġe x
Ġqu e
ĠRasp berry
f ica
j eto
l e
o ra
u n
Ã ³
Ġ 3
Ġb otÃ£o
ĠU m
Ġpa ra
t or
u i
Ġd is
Ġe le
Ġcom o
Ġs e
Ġs u
Ġpro jeto
men te
l Ã©m
p on
t es
Ã ª
Ġ 5
Ġ i
Ġ ca
Ġ res
Ġp os
Ġe n
Ġo utro
or ma
Ġu s
ci a
gra ma
a da
d iz
m b
r en
t ra
u l
v Ã©
Ġ 0
Ġ 2
Ġ C
Ġ l
Ġ ma
Ġp or
Ġp ico
do s
in al
Ġconec tor
ci on
Ġpro grama
ĠP i
an do
Ġap ren
Ġt erm
Ġex p
tra vÃ©
Ġapren diz
travÃ© s
a is
a ÃŃ
d en
i c
i l
n do
n al
n cia
o l
t er
u z
u ra
u Ã¡
v el
µ es
Ã µes
Ġ ta
Ġp i
Ġp o
Ġp erm
Ġa s
Ġa os
Ġa lÃ©m
Ġa travÃ©s
st or
Ġcom pon
Ġs aÃŃ
ti fica
te m
Ġpin os
Ġm on
ri os
ĠP ico
ida de
Ġes ta
Ãª ncia
Ġi den
Ġus uÃ¡
mb Ã©m
Ġaprendiz ado
Ġta mbÃ©m
Ġcompon en
ĠsaÃŃ da
tifica do
Ġiden tificado
ĠusuÃ¡ rios
) ,
2 8
b il
d i
d es
e m
f er
i a
i stor
i Ãªncia
m p
n ica
o v
p o
t re
t ui
z er
Ġ 4
Ġ L
Ġe m
Ġa nal
in do
er ra
Ġs Ã£o
ec e
Ġconecta da
ri a
ida des
men ta
Ġf orma
ĠE s
tiv a
ora r
Ġres istor
Ġprograma Ã§Ã£o
Ġterm inal
ic ro
uz zer
Ġas si
Ġmon ta
erra menta
C L
D A
E D
a i
c e
c es
e x
f ig
g em
h m
i v
i te
i fica
j a
l i
l mente
n ifica
p or
p la
r Ã
r Ã¡
s e
s Ã£o
t rÃ
u da
v ida
´ nica
Ġ 6
Ġ H
Ġ M
Ġ V
Ġ h
Ġ ti
Ġ re
Ġ gra
Ġ tem
Ġa ber
Ġa ces
Ġco l
er g
er iÃªncia
Ġo fer
Ġo hm
st e
Ġcom un
os a
la do
ti l
ti ca
ica Ã§Ã£o
si v
si bil
Ã§ Ãµes
re g
ĠO utro
Ġf erramenta
Ġconectado s
ÃŃ vel
ĠI n
ar ra
iz ada
tiv o
Ã³ d
Ã³ g
Ġdis so
Ġele tro
Ġele trÃ
Ġsu as
Ġpos sibil
Ġl in
Ġpo de
Ġperm ite
Ġcomponen tes
Ġanal Ã³g
fig ura
Ġti po
Ġofer ece
ĠeletrÃ ´nica
) .
1 6
1 7
1 8
1 9
2 0
5 0
A M
E AM
G B
I G
N e
S CL
S DA
T EAM
a m
a re
a ria
c en
c ui
d u
d w
d er
e ado
f orma
g u
g en
h o
h on
h as
i b
i do
i ci
i cion
l orar
m idade
m orar
m eado
n os
n tes
o m
p i
p ec
p res
r g
r reg
r cui
s in
s Ã¡
s so
t u
t ri
u m
u r
v e
Ã º
Ġ -
Ġ D
Ġ T
Ġ W
Ġ c
Ġ j
Ġ Ã
Ġ ci
Ġ lado
Ġp r
Ġp as
Ġd i
Ġe du
Ġa b
Ġa g
in ais
Ġo u
ra n
ta s
ta ndo
ta forma
en ta
st ica
Ġcom p
Ġs in
Ġs er
Ġs ig
Ġu so
Ġu til
Ġcon ex
Ġcon figura
Ġda ndo
on ado
te gra
Ġest Ã£o
Ġest uda
ica da
ci p
Ġm e
Ġm o
Ġm icro
Ġm Ã³d
Ġpro g
Ġpro por
ĠB otÃ£o
ĠB uzzer
it indo
ri morar
Ġ1 1
Ġ1 2
Ġ1 3
Ġ1 4
ĠP ro
ĠR GB
Ġb uzzer
Ġb arra
men to
Ġpla taforma
ab r
og ia
Ġf abr
Ġin ov
Ġin cen
Ġin tegra
ÃŃ stica
ĠA r
ĠA s
ĠA lÃ©m
ĠI A
ĠI sso
Ġno meado
ar dw
iz ar
ĠE x
ĠE ste
Ġap rimorar
tiv ando
Ġv er
Ġv ai
Ġex tre
un as
Ġdis pon
Ġdis pla
Ġse u
Ġsu a
Ġca rreg
Ġpos s
Ġpos icion
Ġen sin
Ġoutro s
ul o
Ġ2 20
ĠC on
ĠC om
Ġma s
Ġma is
cion al
Ġprograma r
Ġterm inais
Ġexp an
Ġexp eriÃªncia
Ġexp lorar
ter nos
Ġperm itindo
Ġesta do
Ġcomponen te
tui ta
ĠL ED
ĠEs ta
Ġassi m
Ġassi st
rÃ¡ tica
vida s
ĠV R
Ġgra tuita
Ġaber to
Ġaces so
Ġcol unas
Ġcomun icaÃ§Ã£o
siv o
Ġeletro dos
Ġpossibil idades
Ġlin has
ĠanalÃ³g ico
rcui to
Ġci rcuito
Ġpas sivo
Ġedu ca
Ġsig nifica
Ġestuda ntes
ĠmÃ³d ulo
Ġpropor cion
Ġinov a
Ġincen tivando
ardw are
Ġextre midade
Ġdispla y
Ġposicion ado
