{"<s>":0,"<pad>":1,"</s>":2,"<unk>":3,"<mask>":4,"!":5,"\"":6,"#":7,"$":8,"%":9,"&":10,"'":11,"(":12,")":13,"*":14,"+":15,",":16,"-":17,".":18,"/":19,"0":20,"1":21,"2":22,"3":23,"4":24,"5":25,"6":26,"7":27,"8":28,"9":29,":":30,";":31,"<":32,"=":33,">":34,"?":35,"@":36,"A":37,"B":38,"C":39,"D":40,"E":41,"F":42,"G":43,"H":44,"I":45,"J":46,"K":47,"L":48,"M":49,"N":50,"O":51,"P":52,"Q":53,"R":54,"S":55,"T":56,"U":57,"V":58,"W":59,"X":60,"Y":61,"Z":62,"[":63,"\\":64,"]":65,"^":66,"_":67,"`":68,"a":69,"b":70,"c":71,"d":72,"e":73,"f":74,"g":75,"h":76,"i":77,"j":78,"k":79,"l":80,"m":81,"n":82,"o":83,"p":84,"q":85,"r":86,"s":87,"t":88,"u":89,"v":90,"w":91,"x":92,"y":93,"z":94,"{":95,"|":96,"}":97,"~":98,"¡":99,"¢":100,"£":101,"¤":102,"¥":103,"¦":104,"§":105,"¨":106,"©":107,"ª":108,"«":109,"¬":110,"®":111,"¯":112,"°":113,"±":114,"²":115,"³":116,"´":117,"µ":118,"¶":119,"·":120,"¸":121,"¹":122,"º":123,"»":124,"¼":125,"½":126,"¾":127,"¿":128,"À":129,"Á":130,"Â":131,"Ã":132,"Ä":133,"Å":134,"Æ":135,"Ç":136,"È":137,"É":138,"Ê":139,"Ë":140,"Ì":141,"Í":142,"Î":143,"Ï":144,"Ð":145,"Ñ":146,"Ò":147,"Ó":148,"Ô":149,"Õ":150,"Ö":151,"×":152,"Ø":153,"Ù":154,"Ú":155,"Û":156,"Ü":157,"Ý":158,"Þ":159,"ß":160,"à":161,"á":162,"â":163,"ã":164,"ä":165,"å":166,"æ":167,"ç":168,"è":169,"é":170,"ê":171,"ë":172,"ì":173,"í":174,"î":175,"ï":176,"ð":177,"ñ":178,"ò":179,"ó":180,"ô":181,"õ":182,"ö":183,"÷":184,"ø":185,"ù":186,"ú":187,"û":188,"ü":189,"ý":190,"þ":191,"ÿ":192,"Ā":193,"ā":194,"Ă":195,"ă":196,"Ą":197,"ą":198,"Ć":199,"ć":200,"Ĉ":201,"ĉ":202,"Ċ":203,"ċ":204,"Č":205,"č":206,"Ď":207,"ď":208,"Đ":209,"đ":210,"Ē":211,"ē":212,"Ĕ":213,"ĕ":214,"Ė":215,"ė":216,"Ę":217,"ę":218,"Ě":219,"ě":220,"Ĝ":221,"ĝ":222,"Ğ":223,"ğ":224,"Ġ":225,"ġ":226,"Ģ":227,"ģ":228,"Ĥ":229,"ĥ":230,"Ħ":231,"ħ":232,"Ĩ":233,"ĩ":234,"Ī":235,"ī":236,"Ĭ":237,"ĭ":238,"Į":239,"į":240,"İ":241,"ı":242,"Ĳ":243,"ĳ":244,"Ĵ":245,"ĵ":246,"Ķ":247,"ķ":248,"ĸ":249,"Ĺ":250,"ĺ":251,"Ļ":252,"ļ":253,"Ľ":254,"ľ":255,"Ŀ":256,"ŀ":257,"Ł":258,"ł":259,"Ń":260,"Ġp":261,"Ġd":262,"Ġe":263,"co":264,"Ġa":265,"Ġco":266,"do":267,"in":268,"er":269,"Ġo":270,"ra":271,"ta":272,"ca":273,"Ġde":274,"en":275,"ĠG":276,"ro":277,"da":278,"st":279,"Ġcom":280,"os":281,"es":282,"£o":283,"Ã£o":284,"Ġs":285,"or":286,"Ã©":287,"Ġu":288,"ec":289,"Ã¡":290,"Ġcon":291,"ma":292,"ĠGP":293,"IO":294,"Ġn":295,"ĠGPIO":296,"la":297,"ti":298,"Ġda":299,"on":300,"te":301,"as":302,"Ġest":303,"to":304,"Ġpin":305,"Ġconec":306,"ica":307,"ci":308,"is":309,"al":310,"Ġm":311,"Ġpro":312,"Ġdo":313,"ĠestÃ¡":314,"Ġpino":315,"ĠB":316,"Ġconecta":317,"it":318,"ri":319,"si":320,"Ã§":321,"qu":322,"re":323,"tro":324,"Ġ1":325,"ĠP":326,"ĠR":327,"Ġb":328,"ado":329,"ico":330,"ida":331,"men":332,"Ġpla":333,"ab":334,"ber":335,"og":336,"ĠO":337,"Ġf":338,"Ġin":339,"Ġconectado":340,"res":341,"ÃŃ":342,"Ġ(":343,"ĠA":344,"ĠI":345,"Ġao":346,"Ġno":347,"Ġplaca":348,"ND":349,"an":350,"ar":351,"de":352,"gra":353,"iz":354,"ot":355,"ĠÃ©":356,"Ġqu":357,"erm":358,"Ġos":359,"ĠGND":360,"Ã©m":361,"Ġum":362,"Ġna":363,"Ã§Ã£o":364,"Dog":365,"Lab":366,"el":367,"ry":368,"ĠE":369,"ĠU":370,"Ġpa":371,"Ġap":372,"Ġuma":373,"tiv":374,"asp":375,"ĠBit":376,"ĠRasp":377,"berry":378,"otÃ£o":379,"DogLab":380,"ĠBitDogLab":381,"eto":382,"ig":383,"so":384,"utro":385,"ĠS":386,"Ġt":387,"Ġv":388,"Ġes":389,"Ġex":390,"Ġque":391,"ĠRaspberry":392,"fica":393,"jeto":394,"le":395,"ora":396,"un":397,"Ã³":398,"Ġ3":399,"ĠbotÃ£o":400,"ĠUm":401,"Ġpara":402,"tor":403,"ui":404,"Ġdis":405,"Ġele":406,"Ġcomo":407,"Ġse":408,"Ġsu":409,"Ġprojeto":410,"mente":411,"lÃ©m":412,"pon":413,"tes":414,"Ãª":415,"Ġ5":416,"Ġi":417,"Ġca":418,"Ġres":419,"Ġpos":420,"Ġen":421,"Ġoutro":422,"orma":423,"Ġus":424,"cia":425,"grama":426,"ada":427,"diz":428,"mb":429,"ren":430,"tra":431,"ul":432,"vÃ©":433,"Ġ0":434,"Ġ2":435,"ĠC":436,"Ġl":437,"Ġma":438,"Ġpor":439,"Ġpico":440,"dos":441,"inal":442,"Ġconector":443,"cion":444,"Ġprograma":445,"ĠPi":446,"ando":447,"Ġapren":448,"Ġterm":449,"Ġexp":450,"travÃ©":451,"Ġaprendiz":452,"travÃ©s":453,"ais":454,"aÃŃ":455,"den":456,"ic":457,"il":458,"ndo":459,"nal":460,"ncia":461,"ol":462,"ter":463,"uz":464,"ura":465,"uÃ¡":466,"vel":467,"µes":468,"Ãµes":469,"Ġta":470,"Ġpi":471,"Ġpo":472,"Ġperm":473,"Ġas":474,"Ġaos":475,"ĠalÃ©m":476,"ĠatravÃ©s":477,"stor":478,"Ġcompon":479,"ĠsaÃŃ":480,"tifica":481,"tem":482,"Ġpinos":483,"Ġmon":484,"rios":485,"ĠPico":486,"idade":487,"Ġesta":488,"Ãªncia":489,"Ġiden":490,"ĠusuÃ¡":491,"mbÃ©m":492,"Ġaprendizado":493,"ĠtambÃ©m":494,"Ġcomponen":495,"ĠsaÃŃda":496,"tificado":497,"Ġidentificado":498,"ĠusuÃ¡rios":499,"),":500,"28":501,"bil":502,"di":503,"des":504,"em":505,"fer":506,"ia":507,"istor":508,"iÃªncia":509,"mp":510,"nica":511,"ov":512,"po":513,"tre":514,"tui":515,"zer":516,"Ġ4":517,"ĠL":518,"Ġem":519,"Ġanal":520,"indo":521,"erra":522,"ĠsÃ£o":523,"ece":524,"Ġconectada":525,"ria":526,"idades":527,"menta":528,"Ġforma":529,"ĠEs":530,"tiva":531,"orar":532,"Ġresistor":533,"ĠprogramaÃ§Ã£o":534,"Ġterminal":535,"icro":536,"uzzer":537,"Ġassi":538,"Ġmonta":539,"erramenta":540,"CL":541,"DA":542,"ED":543,"ai":544,"ce":545,"ces":546,"ex":547,"fig":548,"gem":549,"hm":550,"iv":551,"ite":552,"ifica":553,"ja":554,"li":555,"lmente":556,"nifica":557,"por":558,"pla":559,"rÃ":560,"rÃ¡":561,"se":562,"sÃ£o":563,"trÃ":564,"uda":565,"vida":566,"´nica":567,"Ġ6":568,"ĠH":569,"ĠM":570,"ĠV":571,"Ġh":572,"Ġti":573,"Ġre":574,"Ġgra":575,"Ġtem":576,"Ġaber":577,"Ġaces":578,"Ġcol":579,"erg":580,"eriÃªncia":581,"Ġofer":582,"Ġohm":583,"ste":584,"Ġcomun":585,"osa":586,"lado":587,"til":588,"tica":589,"icaÃ§Ã£o":590,"siv":591,"sibil":592,"Ã§Ãµes":593,"reg":594,"ĠOutro":595,"Ġferramenta":596,"Ġconectados":597,"ÃŃvel":598,"ĠIn":599,"arra":600,"izada":601,"tivo":602,"Ã³d":603,"Ã³g":604,"Ġdisso":605,"Ġeletro":606,"ĠeletrÃ":607,"Ġsuas":608,"Ġpossibil":609,"Ġlin":610,"Ġpode":611,"Ġpermite":612,"Ġcomponentes":613,"ĠanalÃ³g":614,"figura":615,"Ġtipo":616,"Ġoferece":617,"ĠeletrÃ´nica":618,").":619,"16":620,"17":621,"18":622,"19":623,"20":624,"50":625,"AM":626,"EAM":627,"GB":628,"IG":629,"Ne":630,"SCL":631,"SDA":632,"TEAM":633,"am":634,"are":635,"aria":636,"cen":637,"cui":638,"du":639,"dw":640,"der":641,"eado":642,"forma":643,"gu":644,"gen":645,"ho":646,"hon":647,"has":648,"ib":649,"ido":650,"ici":651,"icion":652,"lorar":653,"midade":654,"morar":655,"meado":656,"nos":657,"ntes":658,"om":659,"pi":660,"pec":661,"pres":662,"rg":663,"rreg":664,"rcui":665,"sin":666,"sÃ¡":667,"sso":668,"tu":669,"tri":670,"um":671,"ur":672,"ve":673,"Ãº":674,"Ġ-":675,"ĠD":676,"ĠT":677,"ĠW":678,"Ġc":679,"Ġj":680,"ĠÃ":681,"Ġci":682,"Ġlado":683,"Ġpr":684,"Ġpas":685,"Ġdi":686,"Ġedu":687,"Ġab":688,"Ġag":689,"inais":690,"Ġou":691,"ran":692,"tas":693,"tando":694,"taforma":695,"enta":696,"stica":697,"Ġcomp":698,"Ġsin":699,"Ġser":700,"Ġsig":701,"Ġuso":702,"Ġutil":703,"Ġconex":704,"Ġconfigura":705,"Ġdando":706,"onado":707,"tegra":708,"ĠestÃ£o":709,"Ġestuda":710,"icada":711,"cip":712,"Ġme":713,"Ġmo":714,"Ġmicro":715,"ĠmÃ³d":716,"Ġprog":717,"Ġpropor":718,"ĠBotÃ£o":719,"ĠBuzzer":720,"itindo":721,"rimorar":722,"Ġ11":723,"Ġ12":724,"Ġ13":725,"Ġ14":726,"ĠPro":727,"ĠRGB":728,"Ġbuzzer":729,"Ġbarra":730,"mento":731,"Ġplataforma":732,"abr":733,"ogia":734,"Ġfabr":735,"Ġinov":736,"Ġincen":737,"Ġintegra":738,"ÃŃstica":739,"ĠAr":740,"ĠAs":741,"ĠAlÃ©m":742,"ĠIA":743,"ĠIsso":744,"Ġnomeado":745,"ardw":746,"izar":747,"ĠEx":748,"ĠEste":749,"Ġaprimorar":750,"tivando":751,"Ġver":752,"Ġvai":753,"Ġextre":754,"unas":755,"Ġdispon":756,"Ġdispla":757,"Ġseu":758,"Ġsua":759,"Ġcarreg":760,"Ġposs":761,"Ġposicion":762,"Ġensin":763,"Ġoutros":764,"ulo":765,"Ġ220":766,"ĠCon":767,"ĠCom":768,"Ġmas":769,"Ġmais":770,"cional":771,"Ġprogramar":772,"Ġterminais":773,"Ġexpan":774,"ĠexperiÃªncia":775,"Ġexplorar":776,"ternos":777,"Ġpermitindo":778,"Ġestado":779,"Ġcomponente":780,"tuita":781,"ĠLED":782,"ĠEsta":783,"Ġassim":784,"Ġassist":785,"rÃ¡tica":786,"vidas":787,"ĠVR":788,"Ġgratuita":789,"Ġaberto":790,"Ġacesso":791,"Ġcolunas":792,"ĠcomunicaÃ§Ã£o":793,"sivo":794,"Ġeletrodos":795,"Ġpossibilidades":796,"Ġlinhas":797,"ĠanalÃ³gico":798,"rcuito":799,"Ġcircuito":800,"Ġpassivo":801,"Ġeduca":802,"Ġsignifica":803,"Ġestudantes":804,"ĠmÃ³dulo":805,"Ġproporcion":806,"Ġinova":807,"Ġincentivando":808,"ardware":809,"Ġextremidade":810,"Ġdisplay":811,"Ġposicionado":812}